#ifndef TUNING_CONSTANTS_H
#define TUNING_CONSTANTS_H

/*
 * Critical tuning arrays from arrays.txt with non-zero initial values.
 * These arrays are used to seed the tuning system with proper initial values
 * instead of leaving them zeroed, which can cause tuning failures.
 * Values are little-endian encoded 32-bit entries as in the original arrays.
 */

/* BCSH EV thresholds (9 entries) - from arrays.txt offset 0xaa85c */
static const unsigned char tisp_BCSH_au32EvList[9 * 4] = {
    /* 50, 100, 500, 768, 2000, 3000, 4000, 5000, 7000 */
    0x32,0x00,0x00,0x00, 0x64,0x00,0x00,0x00, 0xf4,0x01,0x00,0x00,
    0x00,0x03,0x00,0x00, 0xd0,0x07,0x00,0x00, 0xb8,0x0b,0x00,0x00,
    0xa0,0x0f,0x00,0x00, 0x88,0x13,0x00,0x00, 0x58,0x1b,0x00,0x00
};

/* BCSH S min/max lists (S domain) - from arrays.txt offset 0xaa838, 0xaa814 */
static const unsigned char tisp_BCSH_au32SminListS[9 * 4] = {
    0x00,0x03,0x00,0x00, 0x00,0x03,0x00,0x00, 0x00,0x03,0x00,0x00,
    0x00,0x03,0x00,0x00, 0x00,0x03,0x00,0x00, 0x00,0x03,0x00,0x00,
    0x00,0x03,0x00,0x00, 0x00,0x03,0x00,0x00, 0x00,0x03,0x00,0x00
};

static const unsigned char tisp_BCSH_au32SmaxListS[9 * 4] = {
    0x00,0x05,0x00,0x00, 0x00,0x05,0x00,0x00, 0x00,0x05,0x00,0x00,
    0x00,0x05,0x00,0x00, 0x00,0x05,0x00,0x00, 0x00,0x05,0x00,0x00,
    0x00,0x05,0x00,0x00, 0x00,0x05,0x00,0x00, 0x00,0x05,0x00,0x00
};

/* BCSH S min/max lists (M domain) - from arrays.txt offset 0xaa7f0, 0xaa7cc */
static const unsigned char tisp_BCSH_au32SminListM[9 * 4] = {
    0x00,0x03,0x00,0x00, 0x00,0x03,0x00,0x00, 0x00,0x03,0x00,0x00,
    0x00,0x03,0x00,0x00, 0x00,0x03,0x00,0x00, 0x00,0x03,0x00,0x00,
    0x00,0x03,0x00,0x00, 0x00,0x03,0x00,0x00, 0x00,0x03,0x00,0x00
};

static const unsigned char tisp_BCSH_au32SmaxListM[9 * 4] = {
    0x00,0x05,0x00,0x00, 0x00,0x05,0x00,0x00, 0x00,0x05,0x00,0x00,
    0x00,0x05,0x00,0x00, 0x00,0x05,0x00,0x00, 0x00,0x05,0x00,0x00,
    0x00,0x05,0x00,0x00, 0x00,0x05,0x00,0x00, 0x00,0x05,0x00,0x00
};

/* BCSH HMatrix - from arrays.txt offset 0xaa694 */
static const unsigned char tisp_BCSH_au32HMatrix[16 * 4] = {
    0x01,0x04,0x00,0x00, 0x04,0x3e,0x00,0x00, 0xf3,0x3e,0x00,0x00, 0xfe,0x3f,0x00,0x00,
    0x05,0x09,0x00,0x00, 0x5f,0x01,0x00,0x00, 0xfe,0x3f,0x00,0x00, 0xf1,0x02,0x00,0x00,
    0x9b,0x0a,0x00,0x00, 0x40,0x00,0x00,0x00, 0xac,0x03,0x00,0x00, 0x40,0x00,0x00,0x00,
    0xbc,0x03,0x00,0x00, 0x00,0x00,0x00,0x00, 0x6c,0x03,0x00,0x00, 0x40,0x00,0x00,0x00
};

/* BCSH HLSP - from arrays.txt offset 0xaa88c */
static const unsigned char tisp_BCSH_au32HLSP[16 * 4] = {
    0x00,0x00,0x00,0x00, 0x08,0x00,0x00,0x00, 0x18,0x00,0x00,0x00, 0x00,0x00,0x00,0x00,
    0x20,0x03,0x00,0x00, 0x60,0x03,0x00,0x00, 0x00,0x00,0x00,0x00, 0x18,0x00,0x00,0x00,
    0x58,0x00,0x00,0x00, 0x00,0x04,0x00,0x00, 0x00,0x00,0x00,0x00, 0x00,0x00,0x00,0x00,
    0x00,0x00,0x00,0x00, 0x00,0x04,0x00,0x00, 0x00,0x00,0x00,0x00, 0x00,0x00,0x00,0x00
};

/* BCSH HBP - from arrays.txt offset 0xaa898 */
static const unsigned char tisp_BCSH_au32HBP[16 * 4] = {
    0x00,0x00,0x00,0x00, 0x20,0x03,0x00,0x00, 0x60,0x03,0x00,0x00, 0x00,0x00,0x00,0x00,
    0x18,0x00,0x00,0x00, 0x58,0x00,0x00,0x00, 0x00,0x04,0x00,0x00, 0x00,0x00,0x00,0x00,
    0x00,0x00,0x00,0x00, 0x00,0x00,0x00,0x00, 0x00,0x04,0x00,0x00, 0x00,0x00,0x00,0x00,
    0x00,0x00,0x00,0x00, 0x00,0x00,0x00,0x00, 0x00,0x04,0x00,0x00, 0x00,0x04,0x00,0x00
};

/* BCSH HDP - from arrays.txt offset 0xaa8a4 */
static const unsigned char tisp_BCSH_au32HDP[16 * 4] = {
    0x00,0x00,0x00,0x00, 0x18,0x00,0x00,0x00, 0x58,0x00,0x00,0x00, 0x00,0x04,0x00,0x00,
    0x00,0x00,0x00,0x00, 0x00,0x00,0x00,0x00, 0x00,0x00,0x00,0x00, 0x00,0x04,0x00,0x00,
    0x00,0x00,0x00,0x00, 0x00,0x00,0x00,0x00, 0x00,0x00,0x00,0x00, 0x00,0x04,0x00,0x00,
    0x00,0x04,0x00,0x00, 0x00,0x00,0x00,0x00, 0x00,0x00,0x00,0x00, 0x00,0x00,0x00,0x00
};

/* BCSH OffsetRGB - from arrays.txt offset 0xaa6f0 */
static const unsigned char tisp_BCSH_au32OffsetRGB[16 * 4] = {
    0x00,0x04,0x00,0x00, 0x00,0x04,0x00,0x00, 0x00,0x04,0x00,0x00, 0x80,0x3c,0x00,0x00,
    0xb4,0xdd,0x00,0x00, 0x00,0x00,0x00,0x00, 0xb4,0xdd,0x00,0x00, 0x00,0x80,0x00,0x00,
    0x00,0x00,0x01,0x00, 0x00,0x80,0x00,0x00, 0x00,0x00,0x00,0x00, 0x3c,0x00,0x00,0x00,
    0x78,0x00,0x00,0x00, 0x00,0x04,0x00,0x00, 0x4c,0x03,0x00,0x00, 0x4c,0x03,0x00,0x00
};

/* CSC Manual - from arrays.txt offset 0xaab30 */
static const unsigned char csc_manual[16 * 4] = {
    0x32,0x01,0x00,0x00, 0x59,0x02,0x00,0x00, 0x75,0x00,0x00,0x00, 0x53,0xff,0xff,0xff,
    0xad,0xfe,0xff,0xff, 0x00,0x02,0x00,0x00, 0x00,0x02,0x00,0x00, 0x53,0xfe,0xff,0xff,
    0xad,0xff,0xff,0xff, 0x00,0x00,0x00,0x00, 0x80,0x00,0x00,0x00, 0x00,0x00,0x00,0x00,
    0xff,0x00,0x00,0x00, 0x00,0x00,0x00,0x00, 0xff,0x00,0x00,0x00, 0xba,0x00,0x00,0x00
};

/* Weight arrays for different resolutions - from arrays.txt */
/* Weight5 1920x1080 - offset 0xab374 */
static const unsigned char weight5_1920_1080[16 * 4] = {
    0x22,0x00,0x00,0x00, 0x44,0x00,0x00,0x00, 0x68,0x00,0x00,0x00, 0x8e,0x00,0x00,0x00,
    0xb4,0x00,0x00,0x00, 0xdc,0x00,0x00,0x00, 0x06,0x01,0x00,0x00, 0x31,0x01,0x00,0x00,
    0x5f,0x01,0x00,0x00, 0x8e,0x01,0x00,0x00, 0xc0,0x01,0x00,0x00, 0xf4,0x01,0x00,0x00,
    0x2a,0x02,0x00,0x00, 0x64,0x02,0x00,0x00, 0xa2,0x02,0x00,0x00, 0xe3,0x02,0x00,0x00
};

/* Weight3 1920x1080 - offset 0xab5ec */
static const unsigned char weight3_1920_1080[16 * 4] = {
    0x10,0x00,0x00,0x00, 0x21,0x00,0x00,0x00, 0x32,0x00,0x00,0x00, 0x44,0x00,0x00,0x00,
    0x57,0x00,0x00,0x00, 0x6b,0x00,0x00,0x00, 0x81,0x00,0x00,0x00, 0x97,0x00,0x00,0x00,
    0xaf,0x00,0x00,0x00, 0xc8,0x00,0x00,0x00, 0xe4,0x00,0x00,0x00, 0x01,0x01,0x00,0x00,
    0x21,0x01,0x00,0x00, 0x44,0x01,0x00,0x00, 0x6a,0x01,0x00,0x00, 0x94,0x01,0x00,0x00
};

/* Block size arrays - from arrays.txt */
/* Block size N 1920 - offset 0xab790 */
static const unsigned char block_sizen_1920[16 * 4] = {
    0x00,0x00,0x00,0x00, 0x6b,0x00,0x00,0x00, 0xd6,0x00,0x00,0x00, 0x41,0x01,0x00,0x00,
    0xac,0x01,0x00,0x00, 0x17,0x02,0x00,0x00, 0x82,0x02,0x00,0x00, 0xed,0x02,0x00,0x00,
    0x58,0x03,0x00,0x00, 0xc3,0x03,0x00,0x00, 0x2e,0x04,0x00,0x00, 0x99,0x04,0x00,0x00,
    0x04,0x05,0x00,0x00, 0x6e,0x05,0x00,0x00, 0xd8,0x05,0x00,0x00, 0x42,0x06,0x00,0x00
};

/* Block size M 1080 - offset 0xab8d8 */
static const unsigned char block_sizem_1080[16 * 4] = {
    0x00,0x00,0x00,0x00, 0x6c,0x00,0x00,0x00, 0xd8,0x00,0x00,0x00, 0x44,0x01,0x00,0x00,
    0xb0,0x01,0x00,0x00, 0x1c,0x02,0x00,0x00, 0x88,0x02,0x00,0x00, 0xf4,0x02,0x00,0x00,
    0x60,0x03,0x00,0x00, 0xcc,0x03,0x00,0x00, 0x38,0x04,0x00,0x00, 0x00,0x00,0x00,0x00,
    0x48,0x00,0x00,0x00, 0x90,0x00,0x00,0x00, 0xd8,0x00,0x00,0x00, 0x20,0x01,0x00,0x00
};

/* Defog arrays with non-zero values - from arrays.txt */
/* Defog block air light arrays - offset 0xab930, 0xabc00, 0xabed0 */
static const unsigned char defog_block_air_light_r[16 * 4] = {
    0xc8,0x00,0x00,0x00, 0xc8,0x00,0x00,0x00, 0xc8,0x00,0x00,0x00, 0xc8,0x00,0x00,0x00,
    0xc8,0x00,0x00,0x00, 0xc8,0x00,0x00,0x00, 0xc8,0x00,0x00,0x00, 0xc8,0x00,0x00,0x00,
    0xc8,0x00,0x00,0x00, 0xc8,0x00,0x00,0x00, 0xc8,0x00,0x00,0x00, 0xc8,0x00,0x00,0x00,
    0xc8,0x00,0x00,0x00, 0xc8,0x00,0x00,0x00, 0xc8,0x00,0x00,0x00, 0xc8,0x00,0x00,0x00
};

static const unsigned char defog_block_air_light_g[16 * 4] = {
    0xc8,0x00,0x00,0x00, 0xc8,0x00,0x00,0x00, 0xc8,0x00,0x00,0x00, 0xc8,0x00,0x00,0x00,
    0xc8,0x00,0x00,0x00, 0xc8,0x00,0x00,0x00, 0xc8,0x00,0x00,0x00, 0xc8,0x00,0x00,0x00,
    0xc8,0x00,0x00,0x00, 0xc8,0x00,0x00,0x00, 0xc8,0x00,0x00,0x00, 0xc8,0x00,0x00,0x00,
    0xc8,0x00,0x00,0x00, 0xc8,0x00,0x00,0x00, 0xc8,0x00,0x00,0x00, 0xc8,0x00,0x00,0x00
};

static const unsigned char defog_block_air_light_b[16 * 4] = {
    0xc8,0x00,0x00,0x00, 0xc8,0x00,0x00,0x00, 0xc8,0x00,0x00,0x00, 0xc8,0x00,0x00,0x00,
    0xc8,0x00,0x00,0x00, 0xc8,0x00,0x00,0x00, 0xc8,0x00,0x00,0x00, 0xc8,0x00,0x00,0x00,
    0xc8,0x00,0x00,0x00, 0xc8,0x00,0x00,0x00, 0xc8,0x00,0x00,0x00, 0xc8,0x00,0x00,0x00,
    0xc8,0x00,0x00,0x00, 0xc8,0x00,0x00,0x00, 0xc8,0x00,0x00,0x00, 0xc8,0x00,0x00,0x00
};

/* Defog transmit array - offset 0xac1a0 */
static const unsigned char defog_block_transmit_t[16 * 4] = {
    0xe6,0x00,0x00,0x00, 0xe6,0x00,0x00,0x00, 0xe6,0x00,0x00,0x00, 0xe6,0x00,0x00,0x00,
    0xe6,0x00,0x00,0x00, 0xe6,0x00,0x00,0x00, 0xe6,0x00,0x00,0x00, 0xe6,0x00,0x00,0x00,
    0xe6,0x00,0x00,0x00, 0xe6,0x00,0x00,0x00, 0xe6,0x00,0x00,0x00, 0xe6,0x00,0x00,0x00,
    0xe6,0x00,0x00,0x00, 0xe6,0x00,0x00,0x00, 0xe6,0x00,0x00,0x00, 0xe6,0x00,0x00,0x00
};

/* Defog main parameter array - offset 0xacc44 */
static const unsigned char param_defog_main_para_array[16 * 4] = {
    0x48,0x00,0x00,0x00, 0xf2,0x00,0x00,0x00, 0x01,0x00,0x00,0x00, 0x08,0x00,0x00,0x00,
    0x10,0x00,0x00,0x00, 0x10,0x00,0x00,0x00, 0x10,0x00,0x00,0x00, 0x10,0x00,0x00,0x00,
    0x10,0x00,0x00,0x00, 0x10,0x00,0x00,0x00, 0x10,0x00,0x00,0x00, 0x00,0x00,0x00,0x00,
    0x6b,0x00,0x00,0x00, 0xd6,0x00,0x00,0x00, 0x41,0x01,0x00,0x00, 0xac,0x01,0x00,0x00
};

#endif /* TUNING_CONSTANTS_H */

